¯
ſ
ǀ
ǁ
ʍ
ʽ
ˌ
ϕ
᛭
​
‎
‱
⁊
⁠
⁡
⅐
⅑
⅒
⅝
∏
∑
∕
∝
∣
∼
≅
≦
⊚
⊥
⊨
⋃
⋆
⋯
⌈
⌉
⌊
⌋
⍋
⍳
⍴
⍺
⎕
⎧
⎩
⏨
␣
━
┻
╯
╱
□
○
◌
⧸
⫽
⸗
⹀
〇
云
何
作
俱
兩
刚
制
器
圓
寶
工
市
斤
易
普
暉
机
毒
汤
泰
洞
用
略
疏
盘
盤
算
网
舍
記
論
連
際
零
頌
鸡
︵
𐀀
𐀊
𐀯
𐀹
𒀸
𒉿
𒋗
𜰖
🙼
##⍴
##‎
##​
##⁠
##ʽ
##盤
##鸡
##汤
##机
##器
##算
##ʍ
##⍳
##易
##𒋗
##𒉿
##ſ
##刚
##際
##連
##━
##┻
##□
##泰
##云
##舍
##論
##疏
##◌
##⫽
##暉
##頌
##工
##作
##制
##𐀯
##𐀹
##𐀊
##寶
##盘
##記
##用
wh
comp
##ork
comput
##stem
##str
cont
progr
##cess
fil
dis
##evel
##ould
comm
rel
##lud
oper
includ
sup
langu
##ased
tw
num
produ
##evelop
##rib
##plic
prov
str
bec
programm
##ational
typ
##erm
serv
cons
techn
##uct
##ict
##ubl
##enc
##ithm
##pos
mem
inst
publ
##aph
dif
applic
compan
wor
##olog
dist
cre
inv
##rough
att
alg
requ
##ribut
datab
##ample
##earch
##illion
exp
bl
##esent
lar
rele
##anc
vari
cor
impl
eff
algor
##ween
##irect
##cept
mult
##ember
pos
##abl
mov
vers
##ild
aut
instr
##iew
ext
secur
foll
##ivers
provid
rem
##ince
repr
##ases
technolog
sev
##ause
orig
##erv
prot
appro
sch
##fore
fram
##plo
desc
##itional
adv
commun
##itect
##round
loc
##uction
ret
americ
##lex
equ
distribut
conc
##ected
compil
stor
##rodu
fo
##urr
##blem
incre
##oci
##stract
##iev
##ource
##ements
pur
##imes
##ained
spe
##style
##emat
compl
##iqu
##ially
##other
dep
meth
displaystyle
univers
##ework
pres
introdu
struct
pers
ent
indu
inte
manag
resp
lib
conv
mathemat
mus
##onom
gl
hist
exec
gre
gener
announ
##omet
##ploy
anim
consid
##ident
regist
##olv
##gest
describ
coll
div
prev
##ences
##ission
##ext
##aining
##elf
##til
partic
assem
poss
conn
amaz
phys
multip
industr
##erg
libr
##ract
##thern
vir
##ilar
communic
##erc
##ared
##ason
contin
enc
wid
##ived
prim
crit
##yth
##iven
constr
init
plat
acqu
complet
fre
intell
rece
sou
sym
ident
corr
financ
##though
suc
compet
##ued
europ
calc
##inc
iee
##ograph
##hib
##acter
associ
##uctions
##ourn
vot
##ention
##read
econom
##fact
arr
stre
separ
fac
##ilities
pract
##xim
##ables
auth
camer
improv
jav
vide
techniqu
signific
arithm
abb
bre
cert
fam
pap
pred
somet
journ
##soft
expl
##ript
env
##ython
integr
##itions
manu
involv
occ
autom
manufact
2024
aud
inf
##ither
pict
alber
simp
##ober
mot
##aces
conf
##ument
offic
intellig
cust
ris
commerc
symb
##ames
##epend
##acks
##anced
beh
##adem
##ird
independ
##ength
hel
chr
telev
virt
##iet
##ilt
sequ
calcul
##erial
##iron
deb
acm
exhib
##unch
instit
environ
execut
lat
##ateg
aff
chann
establ
curr
meas
optim
corpor
pav
tas
lif
scient
transm
lic
##uly
purpos
profess
priv
repl
pavil
cond
##hz
##asing
##ector
academ
trad
##aving
##thers
qual
##ends
##aced
ide
const
extens
ach
prec
##action
##omm
consum
exper
##ogn
wro
rad
##ecess
##irc
apl
rend
interp
discov
achiev
cred
foc
##ank
##esp
agre
equip
glob
##oph
##sequ
defin
infl
clos
##ources
dimens
2025
contribut
circ
eas
compon
tot
##eph
sel
##duc
neg
sem
##empt
arg
canad
ethern
##inary
indiv
decl
diff
artic
cov
dra
##acters
phot
##utions
individ
##oks
##rict
reserv
transl
analy
adm
2022
dou
wfc
##pect
scho
interpre
unl
##ival
seg
artific
coun
ukrain
febr
influ
educ
leno
flo
protoc
hol
##duct
##ief
determ
propert
##aheim
##arily
##aff
##olution
##echan
dyn
upd
kubrick
##aim
##abilities
frequ
##struct
2023
cour
soci
parall
tit
indic
##lear
sug
obs
##icult
princ
lov
dbm
##ires
cris
##atch
##ody
##iber
recogn
redu
##iod
adop
assembl
##ips
fif
dynam
hyp
sig
desp
mechan
compat
fut
##eless
param
sched
repe
behav
necess
appl
##actions
##igned
ver
##ership
epis
dav
altern
adap
##ensive
rout
theor
tem
##ledge
##ql
subt
histor
chec
colle
##asc
lovel
caus
sens
##ustr
##isions
##amm
teleph
lovelace
spl
apis
eval
philos
esp
subs
activ
purch
kh
##aps
##gress
numer
subsequ
hor
mos
##imal
webs
##rupt
##onstr
toget
##rev
2026
##itted
polit
pavilions
##faces
##ather
##ription
##atively
##omen
contr
armv
polic
##plicit
shar
accur
abbrev
##ether
nav
##rastruct
infrastruct
cin
kee
approxim
saf
respons
har
od
##acus
theat
##anch
asc
##anted
ful
##ecially
##lying
##avel
observ
##atives
emerg
lik
promot
squ
proced
ens
compilers
aver
bom
categ
extern
quant
dbms
ded
litt
estim
bab
##istics
abacus
committ
regul
10base
architectures
philosoph
unc
musl
demonstr
##alth
##arch
expos
manip
strateg
licens
dest
##rical
##inter
##ench
stere
chines
shif
##ogle
##tax
mortg
##olith
embed
summ
bor
merg
sov
##iforn
depos
assum
specif
becom
remov
californ
corresp
vul
wir
##uments
chall
simpl
bur
##iment
interv
delet
ess
enabl
refl
enh
minim
incor
vulner
##ceed
spons
##000
scal
ans
##ieves
semant
##onse
##rocess
distin
maint
nom
util
##iences
exch
subst
monolith
##ature
alu
byt
geor
sil
##etical
##ems
sett
attribut
ascii
prob
##ferences
investig
nar
algol
equival
cand
gn
jap
##osc
uns
partn
##ready
admin
##cement
##bage
compos
##aken
premi
lincol
bj
hom
hous
##erse
fri
geomet
adj
immed
constit
gbit
##asons
arpan
##ocr
perm
candid
arpanet
cur
scen
##apping
ult
##kn
##etch
##ague
config
eth
explo
##ought
administ
ey
thre
##elves
deg
hypoth
ven
particip
##ingu
republ
evalu
gar
##ipl
##isl
telec
democr
astr
sn
advant
insp
analyt
princip
campa
##itable
tourn
compar
constrain
acquis
odys
incorpor
piec
chem
abdu
suppl
schem
guar
believ
paramet
cli
recomm
runtime
legisl
milit
guarant
##ream
diss
coord
occurr
exhibitors
magaz
mich
alph
alloc
retr
encod
viol
1000base
innov
##porary
continu
challeng
happ
##raft
100g
##elsen
identif
bene
ov
##enced
effici
##entially
controv
twent
microp
explan
err
controvers
civ
mbit
##amed
suff
advert
##izmi
discipl
##itting
reduc
copyr
##selves
##atically
alge
numeral
convers
cel
ht
##irely
oppos
heav
reli
subsc
preserv
khwar
bott
lond
propos
conver
##abor
ord
enfor
perf
##bsd
manufactur
declar
cinem
fav
gree
##xic
schol
concurr
surv
fundament
assembler
vend
thous
deliv
volum
khwarizmi
hy
##gely
##entional
##ession
excl
elim
enterpr
benef
hyd
##cil
##iding
##osen
subtract
cit
anc
##utes
spect
traff
emp
##anned
synd
##ompl
perfor
fairground
aaai
cele
cou
vict
andro
##rete
##isc
##idence
whe
decre
extrem
domin
tur
netease
##ultane
subm
grad
simultane
magn
vulnerabilities
ber
##otyp
##chron
##akers
superv
emph
stereosc
exclus
kod
##opic
imm
##priate
##obby
distingu
debug
subsid
emphas
##harm
##omput
##acity
alle
##rought
answ
astronom
celebr
nuc
x86
##onn
consequ
##evant
colum
lis
youn
##iations
##iples
##orm
propr
confl
##ushing
prepar
100base
cyc
headqu
propriet
gam
pse
##oral
##ortex
##illed
canc
mexic
babbage
microprocess
pseud
jud
pix
##self
##writ
chap
##atories
purs
collabor
encry
illustr
aer
##unic
hund
##hamm
##uits
##yond
##lywood
##abit
kindi
##augh
##wid
##esents
##entions
##iday
schedul
##hammad
##width
sab
vert
##ician
chur
spir
shap
imag
bir
hier
##wh
exc
##oster
##tenance
concent
armv8
fal
nob
contem
intermed
amb
prototyp
##urray
microc
retriev
sav
##atial
##itives
##igu
##osp
##istical
operand
obt
##ancing
affili
cpus
sigsoft
telecomm
stereoscopic
mur
pard
##orph
##enue
##etime
arth
expans
edm
ec2
widesp
##ieth
elev
obl
##ogr
##iately
##edia
##orized
##eness
##iminal
##ills
supp
empt
parad
throughput
solv
satell
kodak
liqu
pion
stev
reb
##isted
impos
afric
quar
##ontin
hierarch
cos
##erce
inher
##idents
intr
##arters
transist
emot
overl
doct
expon
bletch
##brid
columb
bletchley
cach
foss
kr
stad
##opher
navig
##tran
wavel
##reh
##imm
##imately
abduct
outl
machin
avl
flor
##issions
conclud
arrang
lisp
susp
arpa
trav
shor
amus
##ightly
stra
concl
guid
occas
deriv
##attle
cob
vac
inqu
comed
##ersey
arbit
shad
marv
autonom
perspect
encour
##onton
facil
##know
vehic
subsidi
abductive
cer
eg
ebs
fd
mut
sib
ux
##itr
compreh
adt
acknow
abh
franc
explor
horiz
diag
arbitr
facilit
cle
cogn
esc
##eled
conce
withd
##unction
##ewh
##ertain
abstractions
occup
##ointed
scenari
reinfor
hin
som
##lyph
isol
comprom
enig
##iph
clio
relig
bub
confir
austr
bh
cra
mand
fortran
##ipp
disput
perman
strik
transpar
##icted
tele
##onym
assemblers
hackers
acknowled
dut
fab
##iant
##alian
##isco
##acement
asimo
pric
spo
spok
opport
superc
##ifications
monop
dram
cybers
##ube
privile
behavi
territ
lucent
opportun
386
ath
gro
rul
##wor
##jab
##reg
##idharm
##adata
##odb
##aper
##ipher
##pted
##prec
indym
synchron
predecess
dougl
illino
abbreviations
paradig
abhidharm
indymac
pdp
tabl
tfr
##eline
##rees
##amb
compile
atl
modi
perh
recov
workst
discontin
projector
##incial
authent
promin
propag
morcom
dynamodb
cryptan
substit
tfrac
r2
##ystem
anth
prohib
alib
##abil
arx
##prime
##intosh
phr
subprime
conserv
##phere
80286
conven
primitives
##iliar
aerob
##unications
exponent
cobol
beng
ig
mun
psy
##bur
thr
alb
conj
##osevel
pron
##ounder
appar
roosevel
##apped
motiv
soundtr
smartph
mlp
gigabit
imposs
supercomput
alibaba
arxiv
ast
dv
gpl
jos
kore
soph
##atures
##icago
##utional
##idden
replic
compr
chand
aband
interc
##ender
##ensity
neut
pref
##idential
analyz
satis
dbmss
subtree
bombe
ansi
substant
horizont
cgi
fer
jup
ple
rh
##enn
##arks
##ecode
##ecurity
adel
trig
trib
recurs
##ontrol
initi
tempor
100gbase
citiz
996
microcontrol
cybersecurity
psych
bure
cens
fro
kil
pand
##oly
##icks
##enth
prol
##ift
unf
filmm
parl
invent
annivers
bytecode
debugging
##orphic
aarch
aws
rog
##east
##yc
##inces
##orial
##itter
unif
opc
incl
phen
accompl
11b
termin
mathb
deleg
treas
##isticated
enhanc
microprocessor
dup
fant
rer
##equ
##esc
##rout
##ilies
asp
##irce
##cean
##apher
##antic
manif
franch
underst
mainfr
peirce
pointers
surve
macos
risc
mortgages
axi
perforations
unauth
aerobot
adelard
bant
diction
t1
##gary
##vm
##enge
operands
frag
recon
##herland
accred
##abling
advoc
##iament
obsol
berkel
triang
withdra
bantam
bol
fult
kir
lx
pul
##anches
incompl
clust
##pting
neigh
subrout
blo
quot
everyth
encoun
reprodu
infin
##ylvan
##icians
##nsylvan
pennsylvan
constitu
##known
absol
386bsd
rerun
fib
gh
jer
raster
##teen
anag
##icious
##irl
alc
##iments
##ifact
##apse
syll
##estr
##oreal
marath
accum
##exp
coinc
polygon
malware
cinemat
cryptography
subtraction
satisf
phenomen
anaglyph
bss
h2
kar
pasc
t2
##uff
##olor
repos
compens
##theless
##istent
spar
spac
dey
##illing
clr
commod
amd
amort
scr
newsp
recip
bron
defe
multim
11ac
extr
sympos
latency
admb
volun
##ucker
harv
delete
numerals
##aught
dialog
somewh
rac
ros
vas
##aug
##greg
##vald
##inistic
##oring
##stal
##emic
##irical
orch
interoper
accel
##exual
##pression
encomp
cyan
restaur
debian
executable
preced
negot
##ascope
deletion
subscrib
ambigu
oblig
pione
inquir
diam
haw
rud
zo
##ooth
##61
##alysis
##arithm
##ecraft
##isor
pros
##adesh
rebrand
##osexual
##istry
acron
acorn
hex
perce
ell
weap
aggreg
slav
increment
##ront
medic
demol
optimized
polym
merch
torvald
bsd
ebsco
interconn
torvalds
9000
bbn
dy
jok
pov
vill
##ompan
##eties
##uries
conqu
##ulations
##usive
sp1
disapp
scul
suprem
phy
gramm
##ounds
accompan
carri
entit
freeform
corru
antitr
fulf
settl
transistor
smartphones
antitrust
bie
cabling
hun
jur
rar
sbc
##enbaum
##iles
cham
##apore
sprit
##estic
##berts
heur
reloc
supers
frac
subc
underwrit
11a
logarithm
deterministic
millim
hypothes
breaches
synthes
##prints
amortized
orchest
aq
agr
fb
fount
lect
lyn
nv
wast
zucker
##97
##atar
##enz
##alf
##itory
##acent
forec
std
sty
isra
conso
suic
enact
##ibot
spr
##ighter
incomp
##achus
imax
displ
##airs
agibot
mah
descript
optimizations
##nessee
semicon
denom
2600
armv7
100gbe
identifier
identifiers
microprocessors
##onymous
exponentiation
semiconduct
bm
bund
bah
fem
gard
jac
lod
lum
mes
mol
nok
therm
anam
##asp
##ecut
##econd
##etary
##etts
alus
bez
sust
orth
##agall
ado
apert
tradem
datas
resem
disag
indones
##ictions
##encing
cruc
algorithmic
8086
redund
##uccess
##ronic
##olve
##ripts
calculator
covid
visualization
codd
##loads
constructs
unsuccess
mitig
##alyst
steagall
68000
workstations
volunte
nosql
bes
daw
nag
nda
##rics
##cers
##come
##ønst
##atel
##road
toler
asyn
rewrit
##place
##umann
pra
prair
sp2
##anged
implic
##ouri
indec
simd
brønst
disclos
##ploys
##tsch
generative
swed
geograph
##ienced
stret
multipl
photoreal
morph
satur
cyberatt
massachus
10base2
hubs
exclud
spoof
cryptanalysis
alcatel
brønsted
hosp
kl
nil
ub
wpf
x3
zar
##hatt
##gons
##88
##alog
##isphere
##ilog
compress
sus
##agon
unp
unch
unve
##andhu
##rome
sher
##illance
##ellation
clar
transc
programmable
brack
##ocket
projectors
revers
deliber
##tah
downt
separator
##ubandhu
confed
calculators
polygons
repeater
routers
lookup
destr
##rocessor
unsup
polarization
pronoun
recursive
microcontrollers
opcode
vasubandhu
dw
daugh
euc
fp
gor
gord
nin
npl
trou
ucl
vfp
wom
##ients
##inant
##atrix
inaug
##aled
##asyl
##rets
##isations
##emonic
styl
##ulative
##agement
##agues
unn
unic
adequ
##gres
opin
##asts
specifying
consecut
accomm
##auss
boole
multit
positional
accessing
11n
imps
animations
synt
encaps
readable
predom
codasyl
##comput
antic
buddh
deepm
scalable
firewall
##omsbury
advertis
perforation
rebal
abhidharmak
repeaters
duplex
bloomsbury
iverson
incompat
asynchron
jurisd
eucl
accommod
bul
hou
sind
##organ
infer
##itudes
##iced
##icomput
##elines
##isely
##etry
##change
congest
iter
sulf
##usi
##operation
##ibilities
##ewise
datat
computations
incent
abi
##endum
fractions
##enses
matic
consol
brec
brid
pars
electrom
charl
posix
##ugg
frameworks
induct
##athustr
certific
affil
searchlight
cinemascope
macros
alleg
##where
mnemon
transistors
fdic
diagn
tanenbaum
cyanide
denominator
molec
anamorphic
zarathustr
boolean
mnemonics
zarathustra
dur
gc
gand
miam
rect
rko
tern
ال
##aut
##aque
##fx
##ypt
##alone
##omed
##employ
ont
reput
##ects
##agu
unr
unemploy
adts
##eward
manhatt
##ansas
scre
eliz
corman
queries
saas
##aham
microcomput
surpr
surpass
powerpc
enclos
passwords
virtualization
malays
slashes
fixes
simplify
administr
alphab
esports
mnemonic
overlay
liquidity
illeg
implicitly
axiom
interoperability
disagre
consolid
bost
fals
kle
mend
mys
mips
masc
munic
oly
rou
rup
sut
tut
trop
wisc
wlan
##ket
##bj
##v3
##iture
##icolor
##asy
##etus
##aded
bead
##plan
##unc
unus
unrel
##ipal
ampl
phon
##iograph
##onsin
##aza
telet
cohes
openai
carn
entr
organiz
##olving
multiplex
namesp
widesc
cdot
executes
constants
installer
choos
url
schema
declarations
##kinridge
austral
pandemic
aarch64
enhancements
##breaking
mainframe
tcp
syllab
hypotheses
indecency
syntactic
deepmind
breckinridge
##western
widescreen
awar
dall
fash
ger
gpu
jaz
kev
lind
rah
sever
vl
yout
##rect
inh
inj
inver
##icial
##ilot
##emony
asym
stro
strou
##urning
##igible
alp
##ivac
##ivals
regress
orissa
##unct
inters
##izz
##strup
resc
dism
leech
neur
outr
worksh
matr
emb
metrop
undergrad
electr
coax
minix
noneth
freebsd
infr
optimize
schofield
dynamically
##nedy
renov
10base5
cryptographic
counterp
probabil
hitachi
muhammadan
supercomputing
##ycle
mathbf
underwriting
agricult
nvidia
olymp
syllabic
stroustrup
metropol
4chan
cath
hamm
mimo
pent
sx
vax
zeph
##oqu
##inform
##orant
##eton
##etal
##acc
proport
stim
alab
beaut
##essions
##abeth
##osystem
univac
prest
shr
##izon
abet
manus
cla
amate
##erals
recre
reconstr
2020s
pharm
strugg
decry
##owners
invari
metrics
instruct
valorant
##ismus
keyword
keywords
arrhen
portability
##ilton
skew
indexes
##ylon
##ylic
verizon
##ursor
armv5
scalability
adaptable
csail
##ospher
atmospher
abhidharma
prolog
albertans
honeywell
millimet
bmatrix
ternary
cohesion
arrhenius
bic
bib
bhar
eur
fann
h3
hud
jol
jvm
kum
lor
ped
pec
t4
tro
voc
xero
zan
μm
##here
##eff
##eals
##uum
##td
##fol
##ко
thir
##inct
##ateral
inev
##itely
##artered
##roc
##asible
##ecimal
procl
ism
##imited
##adur
##adim
##thusi
uniqu
enj
enorm
enthusi
##avision
##andal
spam
##ewrit
tra
##izable
netherland
periph
suppos
##intend
workflow
subd
technicolor
inval
algorit
11g
endpoint
annot
sm5
##erville
advers
advanc
##ieval
ecma
preval
##perform
multiply
viewership
##iveness
facult
negatives
barbar
connectors
insertions
configur
astrona
interrupts
punct
encrypted
leonov
##immy
paradigms
lx10
subroutine
sparc
##econds
photorealistic
multitas
anticip
asynchronous
probabilistic
xerox
zanuck
dp
dol
hod
jit
jum
lun
nich
pir
wart
welf
##restr
##tps
##cow
##ycl
##inced
inject
ineff
anten
##itage
##icates
##elph
##ilm
##acon
##acom
prosp
##urb
alum
##advant
##adecimal
##ective
##plom
##osph
unw
unisphere
##ereign
chlor
pras
##iper
disadvant
els
emer
overwh
upgr
invok
accesses
classif
loos
##porter
divest
##incent
portfol
##scape
cpython
circum
rotations
roms
602
contrad
diplom
exchang
bombes
fuj
aliasing
prototyping
microcode
##graded
synchronous
lampson
anthrop
scripting
reconstruct
reruns
roslyn
inkj
rtm
hexadecimal
interconnect
sculpt
bezos
##ogenesis
morphogenesis
unnecess
electromechan
rectang
router
zephyr
prestig
bibl
fannie
##restrial
overwhel
5d
aque
cfp
dor
dum
gith
gad
gau
hus
kel
kimm
sor
tuc
vel
wis
zeros
##gbase
##krit
##ytes
##inqu
##atra
##enet
inexp
##alation
##aligned
##icev
##rotic
##utical
##leep
##irable
##adelph
reop
##odox
subl
##osaur
##unication
unint
unexp
##opard
triv
deem
deput
##alling
abra
contex
commut
##asty
recru
numeric
transce
outcom
typewrit
##uctive
emulation
##iances
3df
metaph
linus
boe
disconn
discrim
##awei
11ad
securit
remot
teltsch
coff
minicomput
##ervised
##flows
ecl
##enger
colloqu
##onto
belg
corrid
legit
restr
predicate
postscript
philadelph
interpol
voicev
initialized
##asca
landholders
##ucky
correctness
huawei
firmware
polarized
circuitry
dissoci
gradu
##system
navigational
atomicity
monopol
scotti
workstation
kilomet
aarch32
kitab
subroutines
prosec
redundancy
cyberattacks
spoofing
unsupervised
firewalls
abhidharmakosa
microcomputers
subdiv
algoritmi
punctuation
aqueous
github
kimmel
teltschik
voiceverse
a5
aes
aip
bos
fs
fol
gcc
hcl
mond
rg
s3
sard
wel
zh
##hous
##nom
##got
##99
##73
##ен
##inity
##atile
anat
anom
##rog
##asion
##elve
##amin
stabil
##uric
##iration
##olemy
##abasca
##ayer
exha
prel
##ibr
oppon
incar
clin
leq
leica
frustr
##ypes
indef
phishing
outperform
workloads
actu
knuth
linq
directives
endors
minsky
carous
advis
redirect
##ugate
##elson
microsystem
